TRT-8402-MinMaxCalibration
images: 3c010204
input: 3ea123c1
onnx::Mul_123: 3c010204
onnx::Conv_124: 3e98baca
input.4: 3f11bccb
onnx::Mul_126: 3c010204
onnx::Conv_127: 3f059990
input.8: 3e899fbf
input.20: 3f0e2787
onnx::Mul_129: 3c010204
onnx::Mul_139: 3c010204
onnx::Conv_130: 3e13361a
onnx::Concat_140: 3e991c5c
input.12: 3e6b7651
onnx::Mul_132: 3c00ff7a
onnx::Conv_133: 3d98bfdf
input.16: 3e1750de
onnx::Mul_135: 3c010204
onnx::Add_136: 3e0602dd
onnx::Concat_137: 3e346626
input.24: 3e991c5c
input.28: 3e3ea29a
onnx::Mul_143: 3c010203
onnx::Conv_144: 3e0326c9
input.32: 3daf4e83
onnx::Mul_146: 3c00ff07
onnx::Conv_147: 3d961e78
input.36: 3d6aa3a2
input.60: 3da02e90
onnx::Mul_149: 3bfdff3c
onnx::Mul_166: 3c00fef1
onnx::Conv_150: 3d03a531
onnx::Concat_167: 3d95a8cc
input.40: 3dce65ec
onnx::Mul_152: 3c0101ed
onnx::Conv_153: 3dce65c7
input.44: 3d4dceec
onnx::Mul_155: 3c00ca32
onnx::Add_156: 3d4d75e0
input.48: 3d80ca38
input.52: 3dc1fde0
onnx::Mul_159: 3c0101d2
onnx::Conv_160: 3dc1fd94
input.56: 3de38e37
onnx::Mul_162: 3c0101fe
onnx::Add_163: 3de38e2c
onnx::Concat_164: 3ddf64b6
input.64: 3ddf64b6
input.68: 3d9ba255
onnx::Mul_170: 3c00ffe4
onnx::Conv_171: 3d9b9fc5
input.72: 3da4703a
onnx::Mul_173: 3c0100c9
onnx::Conv_174: 3da46ea8
input.76: 3d8bf2ba
input.112: 3da66d3c
onnx::Mul_176: 3bff292a
onnx::Mul_200: 3c0100ed
onnx::Conv_177: 3d0f4cb3
onnx::Concat_201: 3da66bd5
input.80: 3ddbabbf
onnx::Mul_179: 3c0101fa
onnx::Conv_180: 3ddbabae
input.84: 3d8a100a
onnx::Mul_182: 3c004123
onnx::Add_183: 3d24b723
input.88: 3d2190c2
input.92: 3da4845a
onnx::Mul_186: 3c00fc74
onnx::Conv_187: 3d8c18ca
input.96: 3d9412a1
onnx::Mul_189: 3c00eded
onnx::Add_190: 3d6ea87c
input.100: 3da938e6
input.104: 3dacf4ef
onnx::Mul_193: 3c00ddd6
onnx::Conv_194: 3d5b9191
input.108: 3da6a65d
onnx::Mul_196: 3c010054
onnx::Add_197: 3d9f560b
onnx::Concat_198: 3e035f15
input.116: 3e035f15
input.120: 3d845400
onnx::Mul_204: 3c00f31b
onnx::Conv_205: 3d784f44
input.124: 3d78794f
onnx::Mul_207: 3c00e112
onnx::Conv_208: 3d5e9cb0
input.128: 3d41d501
input.140: 3d833296
onnx::Mul_210: 3bff80bf
onnx::Mul_220: 3c00f64b
onnx::Conv_211: 3d139c79
onnx::Concat_221: 3d800b7a
input.132: 3dbe4274
onnx::Mul_213: 3c0101c5
onnx::Conv_214: 3dbe4216
input.136: 3da33ac7
onnx::Mul_216: 3c0100b0
onnx::Add_217: 3da33919
onnx::Concat_218: 3da1a4f1
input.144: 3da1a4f1
input.148: 3d902de7
onnx::Mul_224: 3c00e84f
onnx::Conv_225: 3d66aa34
input.152: 3d73ca4f
onnx::Mul_227: 3c00f0ce
onnx::MaxPool_228: 3d73a9c8
onnx::MaxPool_229: 3d73a9c8
onnx::MaxPool_230: 3d73a9c8
onnx::Concat_231: 3d73a9c8
input.156: 3d73a9c8
input.160: 3d64c5df
onnx::Mul_234: 3c002d23
onnx::Conv_235: 3d216efc
input.164: 3d8eb8fa
onnx::Mul_237: 3bffe6af
onnx::Resize_238: 3d1968f1
onnx::Concat_243: 3d1968f1
input.168: 3d784f44
input.172: 3d795395
input.184: 3d818331
onnx::Mul_246: 3c004cc3
onnx::Mul_255: 3c00a6da
onnx::Conv_247: 3d26c733
onnx::Concat_256: 3d3d6d83
input.176: 3d805ca6
onnx::Mul_249: 3c00f67d
onnx::Conv_250: 3d80512d
input.180: 3d90d169
onnx::Mul_252: 3c00edd7
onnx::Concat_253: 3d6e84ab
input.188: 3d6e84ab
input.192: 3dad9d82
onnx::Mul_259: 3c00dcf7
onnx::Conv_260: 3d5accab
input.196: 3d774b6b
onnx::Mul_262: 3c003c35
onnx::Resize_263: 3d23e064
onnx::Concat_268: 3d23e064
input.200: 3d9b9fc5
input.204: 3d907bf3
input.216: 3d6b5773
onnx::Mul_271: 3bfa2246
onnx::Mul_280: 3c00eba7
onnx::Conv_272: 3cd83482
onnx::Concat_281: 3d6b2ea7
input.208: 3d7f7ac8
onnx::Mul_274: 3c009bf4
onnx::Conv_275: 3d39b943
input.212: 3e51c3a0
onnx::Mul_277: 3c0101fd
onnx::Concat_278: 3de0f5ce
input.220: 3de0f5ce
input.224: 3e86f717
onnx::Mul_284: 3c010204
onnx::Conv_285: 3e219311
input.228: 3d8cc1ce
onnx::Sigmoid_326: 3e442315
onnx::Mul_287: 3c00fcab
p3: 3c00ed30
onnx::Concat_288: 3d8cbbf8
input.232: 3d8cbbf8
input.236: 3da742ec
input.248: 3d71f63a
onnx::Mul_291: 3c00fbe7
onnx::Mul_300: 3c00d9e5
onnx::Conv_292: 3d8a9012
onnx::Concat_301: 3d58354c
input.240: 3d99de9f
onnx::Mul_294: 3c00ddeb
onnx::Conv_295: 3d5ba4c2
input.244: 3ded97b7
onnx::Mul_297: 3c010148
onnx::Concat_298: 3dacb8f6
input.252: 3dacb8f6
input.256: 3e23a752
onnx::Mul_304: 3c010204
onnx::Conv_305: 3e067ab2
input.260: 3d8c5045
onnx::Sigmoid_328: 3e1107ce
onnx::Mul_307: 3c00fc85
p4: 3c00ece0
onnx::Concat_308: 3d8c4a4b
input.264: 3d8c4a4b
input.268: 3d7be838
input.280: 3d6c9d12
onnx::Mul_311: 3c00e980
onnx::Mul_320: 3c00ec84
onnx::Conv_312: 3d6833a2
onnx::Concat_321: 3d6c75a3
input.272: 3d8efe6c
onnx::Mul_314: 3c00e0f1
onnx::Conv_315: 3d5e7cdc
input.276: 3d8a3881
onnx::Mul_317: 3c00e003
onnx::Concat_318: 3d5d9649
input.284: 3d6c75a3
input.288: 3dbc5070
onnx::Mul_324: 3c00f6e0
onnx::Conv_325: 3d80de14
onnx::Sigmoid_330: 3e324a72
p5: 3c0101bb
DecodeNumDetection: 40bb76ee
DecodeDetectionBoxes: 40a1ce89
DecodeDetectionScores: 3be65edb
DecodeDetectionClasses: 3cc18306
